
#ifndef EMBEDDED_DATA_H
#define EMBEDDED_DATA_H

#include <Arduino.h>

// Auto-generated from esp32_deployment_1/esp32_aqi_model.tflite
const unsigned char embedded_model_data[] PROGMEM = {
    0x1c, 0x00, 0x00, 0x00, 0x54, 0x46, 0x4c, 0x33, 0x14, 0x00, 0x20, 0x00, 0x1c, 0x00, 0x18, 0x00, 
    0x14, 0x00, 0x10, 0x00, 0x0c, 0x00, 0x00, 0x00, 0x08, 0x00, 0x04, 0x00, 0x14, 0x00, 0x00, 0x00, 
    0x1c, 0x00, 0x00, 0x00, 0x98, 0x00, 0x00, 0x00, 0xf0, 0x00, 0x00, 0x00, 0xa4, 0x06, 0x00, 0x00, 
    0xb4, 0x06, 0x00, 0x00, 0x9c, 0x0b, 0x00, 0x00, 0x03, 0x00, 0x00, 0x00, 0x01, 0x00, 0x00, 0x00, 
    0x10, 0x00, 0x00, 0x00, 0x00, 0x00, 0x0a, 0x00, 0x10, 0x00, 0x0c, 0x00, 0x08, 0x00, 0x04, 0x00, 
    0x0a, 0x00, 0x00, 0x00, 0x0c, 0x00, 0x00, 0x00, 0x1c, 0x00, 0x00, 0x00, 0x3c, 0x00, 0x00, 0x00, 
    0x0f, 0x00, 0x00, 0x00, 0x73, 0x65, 0x72, 0x76, 0x69, 0x6e, 0x67, 0x5f, 0x64, 0x65, 0x66, 0x61, 
    0x75, 0x6c, 0x74, 0x00, 0x01, 0x00, 0x00, 0x00, 0x04, 0x00, 0x00, 0x00, 0x90, 0xff, 0xff, 0xff, 
    0x09, 0x00, 0x00, 0x00, 0x04, 0x00, 0x00, 0x00, 0x08, 0x00, 0x00, 0x00, 0x6f, 0x75, 0x74, 0x70, 
    0x75, 0x74, 0x5f, 0x30, 0x00, 0x00, 0x00, 0x00, 0x01, 0x00, 0x00, 0x00, 0x04, 0x00, 0x00, 0x00, 
    0x0a, 0xfa, 0xff, 0xff, 0x04, 0x00, 0x00, 0x00, 0x0c, 0x00, 0x00, 0x00, 0x6b, 0x65, 0x72, 0x61, 
    0x73, 0x5f, 0x74, 0x65, 0x6e, 0x73, 0x6f, 0x72, 0x00, 0x00, 0x00, 0x00, 0x02, 0x00, 0x00, 0x00, 
    0x34, 0x00, 0x00, 0x00, 0x04, 0x00, 0x00, 0x00, 0xdc, 0xff, 0xff, 0xff, 0x0c, 0x00, 0x00, 0x00, 
    0x04, 0x00, 0x00, 0x00, 0x13, 0x00, 0x00, 0x00, 0x43, 0x4f, 0x4e, 0x56, 0x45, 0x52, 0x53, 0x49, 
    0x4f, 0x4e, 0x5f, 0x4d, 0x45, 0x54, 0x41, 0x44, 0x41, 0x54, 0x41, 0x00, 0x08, 0x00, 0x0c, 0x00, 
    0x08, 0x00, 0x04, 0x00, 0x08, 0x00, 0x00, 0x00, 0x0b, 0x00, 0x00, 0x00, 0x04, 0x00, 0x00, 0x00, 
    0x13, 0x00, 0x00, 0x00, 0x6d, 0x69, 0x6e, 0x5f, 0x72, 0x75, 0x6e, 0x74, 0x69, 0x6d, 0x65, 0x5f, 
    0x76, 0x65, 0x72, 0x73, 0x69, 0x6f, 0x6e, 0x00, 0x0d, 0x00, 0x00, 0x00, 0xb0, 0x05, 0x00, 0x00, 
    0xa8, 0x05, 0x00, 0x00, 0x78, 0x05, 0x00, 0x00, 0x60, 0x03, 0x00, 0x00, 0x4c, 0x03, 0x00, 0x00, 
    0x1c, 0x03, 0x00, 0x00, 0xcc, 0x02, 0x00, 0x00, 0xbc, 0x00, 0x00, 0x00, 0xb4, 0x00, 0x00, 0x00, 
    0xac, 0x00, 0x00, 0x00, 0xa4, 0x00, 0x00, 0x00, 0x84, 0x00, 0x00, 0x00, 0x04, 0x00, 0x00, 0x00, 
    0xba, 0xfa, 0xff, 0xff, 0x04, 0x00, 0x00, 0x00, 0x70, 0x00, 0x00, 0x00, 0x0c, 0x00, 0x00, 0x00, 
    0x08, 0x00, 0x0c, 0x00, 0x08, 0x00, 0x04, 0x00, 0x08, 0x00, 0x00, 0x00, 0x10, 0x00, 0x00, 0x00, 
    0x28, 0x00, 0x00, 0x00, 0x08, 0x00, 0x0c, 0x00, 0x08, 0x00, 0x07, 0x00, 0x08, 0x00, 0x00, 0x00, 
    0x00, 0x00, 0x00, 0x01, 0x04, 0x00, 0x00, 0x00, 0x00, 0x00, 0x00, 0x00, 0x0c, 0x00, 0x1c, 0x00, 
    0x18, 0x00, 0x14, 0x00, 0x10, 0x00, 0x04, 0x00, 0x0c, 0x00, 0x00, 0x00, 0x08, 0xd9, 0xa1, 0x15, 
    0x5b, 0xe5, 0x5e, 0xe3, 0x00, 0x00, 0x00, 0x00, 0x02, 0x00, 0x00, 0x00, 0x02, 0x00, 0x00, 0x00, 
    0x04, 0x00, 0x00, 0x00, 0x12, 0x00, 0x00, 0x00, 0x32, 0x2e, 0x32, 0x30, 0x2e, 0x30, 0x2d, 0x64, 
    0x65, 0x76, 0x32, 0x30, 0x32, 0x35, 0x30, 0x34, 0x31, 0x30, 0x00, 0x00, 0x36, 0xfb, 0xff, 0xff, 
    0x04, 0x00, 0x00, 0x00, 0x10, 0x00, 0x00, 0x00, 0x31, 0x2e, 0x35, 0x2e, 0x30, 0x00, 0x00, 0x00, 
    0x00, 0x00, 0x00, 0x00, 0x00, 0x00, 0x00, 0x00, 0x50, 0xf6, 0xff, 0xff, 0x54, 0xf6, 0xff, 0xff, 
    0x58, 0xf6, 0xff, 0xff, 0x5e, 0xfb, 0xff, 0xff, 0x04, 0x00, 0x00, 0x00, 0x00, 0x02, 0x00, 0x00, 
    0xb9, 0xa6, 0xd4, 0xbd, 0xfc, 0x82, 0xf7, 0x3e, 0xfd, 0xbd, 0xd5, 0x3e, 0x71, 0x33, 0xb7, 0x3e, 
    0x49, 0xcb, 0x79, 0xbe, 0x20, 0x52, 0xd2, 0x3e, 0xfc, 0x50, 0x50, 0x3e, 0x71, 0xae, 0x4d, 0x3f, 
    0x90, 0x40, 0x97, 0xbe, 0xd4, 0x3e, 0x9d, 0x3e, 0xaa, 0x1b, 0x38, 0x3f, 0xe2, 0x70, 0x1a, 0x3f, 
    0x8e, 0x3d, 0xf9, 0xbe, 0xf7, 0x47, 0xc3, 0x3e, 0x6b, 0x1a, 0xb3, 0xbc, 0x76, 0x2a, 0x7e, 0x3f, 
    0xf5, 0xdd, 0x6d, 0x3e, 0x5e, 0xf5, 0xd4, 0x3d, 0xb5, 0x23, 0xa9, 0x3b, 0x62, 0x78, 0x0d, 0x3f, 
    0x1f, 0x03, 0x18, 0x3e, 0x71, 0x2e, 0xa6, 0x3e, 0xa6, 0xef, 0xb3, 0xbe, 0xe2, 0x19, 0x2e, 0x3f, 
    0x56, 0x2c, 0xec, 0x3e, 0x7f, 0xcd, 0x57, 0xbe, 0x7b, 0x9f, 0xfb, 0xbe, 0x33, 0xcb, 0x19, 0xbf, 
    0xee, 0x9a, 0x88, 0x3e, 0xa7, 0x71, 0xb8, 0xbc, 0x1c, 0x9b, 0x6f, 0xbd, 0xe7, 0x98, 0x01, 0x3f, 
    0xae, 0x02, 0xc0, 0xbd, 0x6b, 0x3d, 0xee, 0xbd, 0x0b, 0x6a, 0x49, 0x3f, 0x9a, 0x69, 0x1b, 0x3f, 
    0x2a, 0xd5, 0xfb, 0x3d, 0x53, 0x14, 0x18, 0x3f, 0x9e, 0x17, 0x4b, 0xbd, 0x52, 0x34, 0x9d, 0x3e, 
    0x5c, 0x97, 0x9a, 0x3d, 0x73, 0xc7, 0xbd, 0x3d, 0x00, 0xef, 0x81, 0x3e, 0xdf, 0xe9, 0xa4, 0xbe, 
    0x79, 0xc3, 0xbb, 0x3e, 0x62, 0x0b, 0xac, 0xbe, 0xc6, 0x1e, 0x1d, 0x3e, 0xc4, 0x05, 0x26, 0x3f, 
    0x97, 0x2f, 0x65, 0x3e, 0x80, 0x24, 0xa7, 0xbe, 0x58, 0x52, 0x0e, 0x3e, 0x6c, 0xbd, 0xae, 0x3e, 
    0x8e, 0x93, 0x0a, 0x3e, 0x5d, 0xd9, 0xa0, 0xbe, 0x08, 0xf4, 0x1c, 0xbf, 0x55, 0x4b, 0x8a, 0x3e, 
    0xb0, 0xc9, 0xb8, 0x3d, 0xeb, 0xd6, 0xaf, 0xbe, 0x69, 0x5f, 0x26, 0xbf, 0x43, 0xd6, 0x58, 0xbf, 
    0xf9, 0xd1, 0xd2, 0xbe, 0x0c, 0x2e, 0x49, 0x3e, 0x49, 0x62, 0x42, 0xbe, 0xb7, 0xae, 0xa6, 0x3e, 
    0x17, 0xe9, 0x0b, 0x3e, 0x50, 0x7b, 0x70, 0x3e, 0x67, 0x17, 0xa1, 0xbd, 0x8f, 0x86, 0x2c, 0x3f, 
    0xbf, 0x71, 0x91, 0xbe, 0x78, 0x89, 0xdd, 0x3e, 0x08, 0x14, 0x85, 0xbd, 0xb0, 0x36, 0x65, 0x3f, 
    0xc8, 0x65, 0xf4, 0x3c, 0xb0, 0x8d, 0x8a, 0x3d, 0x9d, 0x8a, 0x56, 0x3f, 0x2f, 0x15, 0x0a, 0x3e, 
    0x39, 0x0a, 0x74, 0xbe, 0x71, 0xdb, 0x37, 0x3e, 0x4c, 0xc8, 0x97, 0xbe, 0xd7, 0xeb, 0x0f, 0x3f, 
    0xcb, 0xd8, 0x16, 0x3d, 0x37, 0xc6, 0x3e, 0xbe, 0x52, 0xbe, 0x21, 0xbe, 0x66, 0x50, 0xf1, 0xbe, 
    0x60, 0x1d, 0xd4, 0xbb, 0xab, 0xfa, 0x2a, 0x3c, 0xa8, 0x2d, 0x48, 0xbd, 0xca, 0xec, 0x13, 0x3f, 
    0x71, 0x5c, 0xa5, 0x3c, 0x76, 0x7a, 0x76, 0x3e, 0xd0, 0x81, 0x2f, 0x3f, 0xf0, 0xa2, 0xaa, 0x3e, 
    0xb0, 0x04, 0xfc, 0xbd, 0xd4, 0x17, 0xe5, 0x3e, 0x90, 0xac, 0xc1, 0x3d, 0xd1, 0xcb, 0x41, 0x3f, 
    0x61, 0x61, 0x1a, 0xbd, 0x09, 0x03, 0xe5, 0x3e, 0xeb, 0x26, 0x2a, 0xbe, 0x85, 0x01, 0x5a, 0x3e, 
    0xe2, 0x47, 0xd0, 0xbd, 0x89, 0x13, 0x18, 0xbe, 0x7a, 0xd0, 0x4e, 0x3e, 0xdd, 0x28, 0x3d, 0x3e, 
    0xd0, 0x53, 0x23, 0x3d, 0x6f, 0x00, 0x26, 0x3d, 0x44, 0xac, 0x11, 0x3f, 0xfa, 0xb6, 0xdb, 0xbc, 
    0xe0, 0x16, 0xac, 0xbd, 0xba, 0x00, 0x96, 0xbd, 0x9d, 0x3d, 0x46, 0xbf, 0x07, 0x18, 0x71, 0x3f, 
    0xe7, 0xc2, 0xdb, 0x3d, 0x21, 0xdf, 0x0b, 0xbe, 0x52, 0xb9, 0x52, 0xbf, 0xed, 0x19, 0x49, 0xbf, 
    0xe9, 0xc7, 0xb7, 0x3e, 0x1e, 0x38, 0x79, 0x3e, 0x6b, 0x04, 0xe7, 0x3e, 0xdc, 0x60, 0x10, 0x3f, 
    0x91, 0xdf, 0x2f, 0x3e, 0x0d, 0xba, 0x3d, 0xbe, 0x51, 0x68, 0x65, 0xbf, 0x8d, 0x5f, 0x60, 0xbf, 
    0xe5, 0x6f, 0x60, 0xbe, 0xf5, 0x79, 0x04, 0x3e, 0xa8, 0xaf, 0xcc, 0x3e, 0xb2, 0x95, 0x17, 0x3e, 
    0x6a, 0xfd, 0xff, 0xff, 0x04, 0x00, 0x00, 0x00, 0x40, 0x00, 0x00, 0x00, 0x23, 0x97, 0xaf, 0x3e, 
    0x9f, 0xda, 0xe2, 0x3e, 0xf5, 0xa3, 0xd5, 0x3e, 0x83, 0xcc, 0x94, 0x3f, 0xfe, 0xcd, 0xe3, 0x3e, 
    0xf2, 0xff, 0x90, 0x3f, 0xd3, 0xe9, 0x99, 0x3f, 0xdd, 0x0b, 0xa0, 0x3f, 0xf3, 0x0c, 0xa2, 0x3e, 
    0xd9, 0x0b, 0xe6, 0x3e, 0x97, 0xfa, 0x87, 0x3f, 0x1d, 0xda, 0xd6, 0x3e, 0x76, 0x86, 0xb0, 0x3f, 
    0x94, 0x6b, 0x1f, 0x3f, 0x47, 0x6a, 0xa1, 0x3f, 0xae, 0xeb, 0x66, 0x3f, 0xb6, 0xfd, 0xff, 0xff, 
    0x04, 0x00, 0x00, 0x00, 0x20, 0x00, 0x00, 0x00, 0x18, 0xf1, 0x88, 0xbe, 0x2b, 0xb3, 0xe2, 0x3f, 
    0xce, 0xd6, 0x08, 0x40, 0x30, 0x17, 0xf7, 0x3f, 0xf8, 0x5b, 0x14, 0x40, 0x5d, 0xd8, 0xe0, 0x3f, 
    0x0e, 0xef, 0x4f, 0xbe, 0x09, 0xd3, 0xe3, 0x3f, 0xe2, 0xfd, 0xff, 0xff, 0x04, 0x00, 0x00, 0x00, 
    0x04, 0x00, 0x00, 0x00, 0xc8, 0x27, 0xa2, 0x3f, 0xf2, 0xfd, 0xff, 0xff, 0x04, 0x00, 0x00, 0x00, 
    0x00, 0x02, 0x00, 0x00, 0x6f, 0x61, 0x02, 0x3e, 0x3a, 0xab, 0x01, 0xbf, 0xb3, 0x3d, 0xaf, 0xbe, 
    0xd2, 0x69, 0x18, 0x3d, 0x3c, 0x9a, 0xda, 0xbd, 0x44, 0xcc, 0xa7, 0xbe, 0x71, 0x1c, 0x30, 0xbd, 
    0xd7, 0x08, 0x02, 0xbf, 0x13, 0x40, 0x4d, 0xbe, 0xc3, 0x99, 0x8b, 0x3d, 0x3a, 0x47, 0x44, 0x3e, 
    0xeb, 0x94, 0xea, 0xbe, 0xf5, 0xf7, 0xcd, 0xbe, 0x74, 0x8f, 0x0d, 0xbf, 0x09, 0x51, 0xf8, 0xbb, 
    0xa7, 0x92, 0x17, 0xbf, 0x59, 0x38, 0x14, 0x3e, 0x07, 0x37, 0x6a, 0x3e, 0x02, 0xca, 0x48, 0x3f, 
    0xe2, 0x25, 0xb5, 0x3c, 0xf5, 0x73, 0xf9, 0x3e, 0x09, 0xf0, 0xff, 0x3e, 0x90, 0x10, 0x4a, 0x3f, 
    0xd2, 0x79, 0x3f, 0x3f, 0x57, 0x68, 0xb6, 0xbd, 0x8c, 0x19, 0x0b, 0x3f, 0xce, 0xb6, 0x47, 0x3f, 
    0x65, 0xd9, 0x37, 0x3f, 0xef, 0x29, 0xf6, 0x3e, 0x62, 0x72, 0xba, 0x3e, 0xc9, 0x87, 0x7b, 0x3e, 
    0x53, 0x0f, 0xe8, 0x3e, 0x64, 0xb3, 0x97, 0x3e, 0xb5, 0xee, 0xe3, 0xbd, 0x50, 0xa3, 0xab, 0x3e, 
    0x51, 0x4a, 0x2d, 0x3f, 0xcf, 0xd7, 0x19, 0x3e, 0xcf, 0x6a, 0x98, 0x3f, 0x47, 0xfe, 0x3e, 0x3f, 
    0xd1, 0x22, 0x3b, 0x3f, 0x87, 0x85, 0xe4, 0x3e, 0x5b, 0x4d, 0x80, 0x3e, 0x71, 0xe9, 0xe5, 0x3e, 
    0xeb, 0x32, 0x14, 0x3d, 0x08, 0xbc, 0x0b, 0x3f, 0xcc, 0x7b, 0x2b, 0x3f, 0xd8, 0xbe, 0x45, 0x3e, 
    0xfe, 0x44, 0xbd, 0x3e, 0x77, 0x88, 0x00, 0xbf, 0xb0, 0x32, 0x6f, 0x3f, 0x66, 0x5a, 0xa5, 0xbe, 
    0x33, 0xec, 0x69, 0x3f, 0x21, 0xb9, 0x6d, 0xbd, 0xd5, 0x30, 0x35, 0xbd, 0xb3, 0x14, 0x9f, 0xbe, 
    0x16, 0x76, 0x6f, 0xbf, 0x91, 0x1b, 0xcc, 0x3c, 0x1f, 0x4c, 0x8c, 0xbe, 0x00, 0x20, 0x1a, 0x3f, 
    0x3a, 0x3d, 0x92, 0xbe, 0x15, 0xea, 0x98, 0xbe, 0xb3, 0xd4, 0x9e, 0xbe, 0xfd, 0x69, 0x8a, 0xbd, 
    0xbf, 0x3b, 0x01, 0xbf, 0x23, 0xe7, 0x0f, 0x3f, 0xd0, 0x1c, 0x99, 0xbc, 0x50, 0x49, 0x91, 0x3e, 
    0x87, 0x86, 0xeb, 0x3c, 0x5d, 0xac, 0x9c, 0x3e, 0x90, 0x77, 0x27, 0x3f, 0x09, 0x74, 0xd6, 0x3e, 
    0x44, 0x44, 0x6d, 0x3f, 0x46, 0x89, 0xe3, 0x3e, 0xdb, 0x26, 0x45, 0x3e, 0xd6, 0x02, 0x82, 0x3f, 
    0xbe, 0xb8, 0x2c, 0x3f, 0x9b, 0xf8, 0x95, 0x3f, 0x46, 0x8b, 0x7b, 0x3e, 0xd6, 0x3a, 0xd8, 0x3e, 
    0x47, 0x8b, 0x6c, 0x3f, 0xb2, 0xd9, 0x1b, 0x3f, 0xb0, 0x88, 0xa4, 0x3e, 0xe3, 0x0e, 0xca, 0x3d, 
    0x39, 0xc5, 0xf7, 0x3e, 0xc3, 0x7c, 0xf2, 0x3e, 0xd5, 0x0b, 0x73, 0x3f, 0x49, 0x1c, 0x1c, 0x3f, 
    0xea, 0xe0, 0xac, 0x3e, 0x08, 0xa8, 0x06, 0x3f, 0x2c, 0x3b, 0x0a, 0x3f, 0xcc, 0x6c, 0xd9, 0x3e, 
    0x53, 0xa7, 0xa7, 0xba, 0x0e, 0xd3, 0xe6, 0x3e, 0x37, 0x98, 0x8a, 0x3e, 0xa4, 0xa2, 0x9f, 0x3e, 
    0x1a, 0x1e, 0xfa, 0x3d, 0x36, 0x0b, 0xa9, 0xbb, 0xd9, 0xdb, 0xdf, 0xbe, 0xfd, 0x11, 0xa2, 0xbe, 
    0xcf, 0x9d, 0x0c, 0xbf, 0x1b, 0x9d, 0xe1, 0x3c, 0xb0, 0xd1, 0x0b, 0xbe, 0x52, 0x2f, 0x1b, 0xbe, 
    0xb8, 0x45, 0xf6, 0xbe, 0xd7, 0xb7, 0x34, 0xbe, 0x8f, 0x9d, 0x43, 0xbe, 0x71, 0xb4, 0x63, 0xbe, 
    0xc6, 0x4e, 0x4e, 0x3e, 0x0a, 0x87, 0xf1, 0xbe, 0xf7, 0x2d, 0x81, 0xbe, 0x12, 0xda, 0x19, 0xbe, 
    0xf8, 0x0f, 0xd5, 0x3d, 0x8d, 0xfb, 0xc0, 0x3e, 0x50, 0xab, 0x82, 0x3e, 0xe1, 0xa9, 0x4d, 0x3f, 
    0x4f, 0x50, 0x0b, 0x3f, 0x3a, 0x93, 0xd2, 0xbd, 0x5e, 0x11, 0x97, 0x3e, 0x42, 0xb9, 0x2e, 0x3f, 
    0xc5, 0xe7, 0x6f, 0x3e, 0x49, 0xff, 0x99, 0x3e, 0x08, 0x86, 0x88, 0x3e, 0x30, 0xc6, 0x56, 0x3e, 
    0xb8, 0xd2, 0x4a, 0x3e, 0x00, 0x14, 0xde, 0x3e, 0xd8, 0x38, 0x3c, 0x3f, 0x8d, 0x59, 0x3c, 0x3f, 
    0x62, 0x3f, 0x71, 0x3f, 0x00, 0x00, 0x06, 0x00, 0x08, 0x00, 0x04, 0x00, 0x06, 0x00, 0x00, 0x00, 
    0x04, 0x00, 0x00, 0x00, 0x20, 0x00, 0x00, 0x00, 0x53, 0xe4, 0x9d, 0xbd, 0x2d, 0x15, 0xb7, 0x3f, 
    0xe5, 0xb0, 0x8b, 0x3f, 0x2e, 0xeb, 0x02, 0x40, 0x0a, 0x77, 0x2b, 0x3f, 0xed, 0x85, 0xae, 0x3f, 
    0x49, 0x34, 0xe4, 0xbe, 0x70, 0x5c, 0x9e, 0x3f, 0x30, 0xfb, 0xff, 0xff, 0x34, 0xfb, 0xff, 0xff, 
    0x0f, 0x00, 0x00, 0x00, 0x4d, 0x4c, 0x49, 0x52, 0x20, 0x43, 0x6f, 0x6e, 0x76, 0x65, 0x72, 0x74, 
    0x65, 0x64, 0x2e, 0x00, 0x01, 0x00, 0x00, 0x00, 0x14, 0x00, 0x00, 0x00, 0x00, 0x00, 0x0e, 0x00, 
    0x18, 0x00, 0x14, 0x00, 0x10, 0x00, 0x0c, 0x00, 0x08, 0x00, 0x04, 0x00, 0x0e, 0x00, 0x00, 0x00, 
    0x14, 0x00, 0x00, 0x00, 0x1c, 0x00, 0x00, 0x00, 0xd8, 0x00, 0x00, 0x00, 0xdc, 0x00, 0x00, 0x00, 
    0xe0, 0x00, 0x00, 0x00, 0x04, 0x00, 0x00, 0x00, 0x6d, 0x61, 0x69, 0x6e, 0x00, 0x00, 0x00, 0x00, 
    0x03, 0x00, 0x00, 0x00, 0x80, 0x00, 0x00, 0x00, 0x38, 0x00, 0x00, 0x00, 0x04, 0x00, 0x00, 0x00, 
    0x9a, 0xff, 0xff, 0xff, 0x10, 0x00, 0x00, 0x00, 0x00, 0x00, 0x00, 0x08, 0x0c, 0x00, 0x00, 0x00, 
    0x10, 0x00, 0x00, 0x00, 0xac, 0xfb, 0xff, 0xff, 0x01, 0x00, 0x00, 0x00, 0x09, 0x00, 0x00, 0x00, 
    0x03, 0x00, 0x00, 0x00, 0x08, 0x00, 0x00, 0x00, 0x01, 0x00, 0x00, 0x00, 0x03, 0x00, 0x00, 0x00, 
    0xca, 0xff, 0xff, 0xff, 0x10, 0x00, 0x00, 0x00, 0x00, 0x00, 0x00, 0x08, 0x10, 0x00, 0x00, 0x00, 
    0x14, 0x00, 0x00, 0x00, 0xba, 0xff, 0xff, 0xff, 0x00, 0x00, 0x00, 0x01, 0x01, 0x00, 0x00, 0x00, 
    0x08, 0x00, 0x00, 0x00, 0x03, 0x00, 0x00, 0x00, 0x07, 0x00, 0x00, 0x00, 0x02, 0x00, 0x00, 0x00, 
    0x04, 0x00, 0x00, 0x00, 0x00, 0x00, 0x0e, 0x00, 0x16, 0x00, 0x00, 0x00, 0x10, 0x00, 0x0c, 0x00, 
    0x0b, 0x00, 0x04, 0x00, 0x0e, 0x00, 0x00, 0x00, 0x18, 0x00, 0x00, 0x00, 0x00, 0x00, 0x00, 0x08, 
    0x18, 0x00, 0x00, 0x00, 0x1c, 0x00, 0x00, 0x00, 0x00, 0x00, 0x06, 0x00, 0x08, 0x00, 0x07, 0x00, 
    0x06, 0x00, 0x00, 0x00, 0x00, 0x00, 0x00, 0x01, 0x01, 0x00, 0x00, 0x00, 0x07, 0x00, 0x00, 0x00, 
    0x03, 0x00, 0x00, 0x00, 0x00, 0x00, 0x00, 0x00, 0x06, 0x00, 0x00, 0x00, 0x05, 0x00, 0x00, 0x00, 
    0x01, 0x00, 0x00, 0x00, 0x09, 0x00, 0x00, 0x00, 0x01, 0x00, 0x00, 0x00, 0x00, 0x00, 0x00, 0x00, 
    0x0a, 0x00, 0x00, 0x00, 0x7c, 0x03, 0x00, 0x00, 0x24, 0x03, 0x00, 0x00, 0xcc, 0x02, 0x00, 0x00, 
    0x90, 0x02, 0x00, 0x00, 0x34, 0x02, 0x00, 0x00, 0xdc, 0x01, 0x00, 0x00, 0x90, 0x01, 0x00, 0x00, 
    0xfc, 0x00, 0x00, 0x00, 0x60, 0x00, 0x00, 0x00, 0x04, 0x00, 0x00, 0x00, 0xc2, 0xfc, 0xff, 0xff, 
    0x00, 0x00, 0x00, 0x01, 0x14, 0x00, 0x00, 0x00, 0x1c, 0x00, 0x00, 0x00, 0x1c, 0x00, 0x00, 0x00, 
    0x0a, 0x00, 0x00, 0x00, 0x34, 0x00, 0x00, 0x00, 0x02, 0x00, 0x00, 0x00, 0xff, 0xff, 0xff, 0xff, 
    0x01, 0x00, 0x00, 0x00, 0xac, 0xfc, 0xff, 0xff, 0x1b, 0x00, 0x00, 0x00, 0x53, 0x74, 0x61, 0x74, 
    0x65, 0x66, 0x75, 0x6c, 0x50, 0x61, 0x72, 0x74, 0x69, 0x74, 0x69, 0x6f, 0x6e, 0x65, 0x64, 0x43, 
    0x61, 0x6c, 0x6c, 0x5f, 0x31, 0x3a, 0x30, 0x00, 0x02, 0x00, 0x00, 0x00, 0x01, 0x00, 0x00, 0x00, 
    0x01, 0x00, 0x00, 0x00, 0x1a, 0xfd, 0xff, 0xff, 0x00, 0x00, 0x00, 0x01, 0x14, 0x00, 0x00, 0x00, 
    0x1c, 0x00, 0x00, 0x00, 0x1c, 0x00, 0x00, 0x00, 0x09, 0x00, 0x00, 0x00, 0x74, 0x00, 0x00, 0x00, 
    0x02, 0x00, 0x00, 0x00, 0xff, 0xff, 0xff, 0xff, 0x08, 0x00, 0x00, 0x00, 0x04, 0xfd, 0xff, 0xff, 
    0x58, 0x00, 0x00, 0x00, 0x73, 0x65, 0x71, 0x75, 0x65, 0x6e, 0x74, 0x69, 0x61, 0x6c, 0x5f, 0x31, 
    0x2f, 0x64, 0x65, 0x6e, 0x73, 0x65, 0x5f, 0x31, 0x5f, 0x32, 0x2f, 0x4d, 0x61, 0x74, 0x4d, 0x75, 
    0x6c, 0x3b, 0x73, 0x65, 0x71, 0x75, 0x65, 0x6e, 0x74, 0x69, 0x61, 0x6c, 0x5f, 0x31, 0x2f, 0x64, 
    0x65, 0x6e, 0x73, 0x65, 0x5f, 0x31, 0x5f, 0x32, 0x2f, 0x52, 0x65, 0x6c, 0x75, 0x3b, 0x73, 0x65, 
    0x71, 0x75, 0x65, 0x6e, 0x74, 0x69, 0x61, 0x6c, 0x5f, 0x31, 0x2f, 0x64, 0x65, 0x6e, 0x73, 0x65, 
    0x5f, 0x31, 0x5f, 0x32, 0x2f, 0x42, 0x69, 0x61, 0x73, 0x41, 0x64, 0x64, 0x00, 0x00, 0x00, 0x00, 
    0x02, 0x00, 0x00, 0x00, 0x01, 0x00, 0x00, 0x00, 0x08, 0x00, 0x00, 0x00, 0xb2, 0xfd, 0xff, 0xff, 
    0x00, 0x00, 0x00, 0x01, 0x14, 0x00, 0x00, 0x00, 0x1c, 0x00, 0x00, 0x00, 0x1c, 0x00, 0x00, 0x00, 
    0x08, 0x00, 0x00, 0x00, 0x6c, 0x00, 0x00, 0x00, 0x02, 0x00, 0x00, 0x00, 0xff, 0xff, 0xff, 0xff, 
    0x10, 0x00, 0x00, 0x00, 0x9c, 0xfd, 0xff, 0xff, 0x52, 0x00, 0x00, 0x00, 0x73, 0x65, 0x71, 0x75, 
    0x65, 0x6e, 0x74, 0x69, 0x61, 0x6c, 0x5f, 0x31, 0x2f, 0x64, 0x65, 0x6e, 0x73, 0x65, 0x5f, 0x31, 
    0x2f, 0x4d, 0x61, 0x74, 0x4d, 0x75, 0x6c, 0x3b, 0x73, 0x65, 0x71, 0x75, 0x65, 0x6e, 0x74, 0x69, 
    0x61, 0x6c, 0x5f, 0x31, 0x2f, 0x64, 0x65, 0x6e, 0x73, 0x65, 0x5f, 0x31, 0x2f, 0x52, 0x65, 0x6c, 
    0x75, 0x3b, 0x73, 0x65, 0x71, 0x75, 0x65, 0x6e, 0x74, 0x69, 0x61, 0x6c, 0x5f, 0x31, 0x2f, 0x64, 
    0x65, 0x6e, 0x73, 0x65, 0x5f, 0x31, 0x2f, 0x42, 0x69, 0x61, 0x73, 0x41, 0x64, 0x64, 0x00, 0x00, 
    0x02, 0x00, 0x00, 0x00, 0x01, 0x00, 0x00, 0x00, 0x10, 0x00, 0x00, 0x00, 0x96, 0xfe, 0xff, 0xff, 
    0x00, 0x00, 0x00, 0x01, 0x10, 0x00, 0x00, 0x00, 0x10, 0x00, 0x00, 0x00, 0x07, 0x00, 0x00, 0x00, 
    0x28, 0x00, 0x00, 0x00, 0x1c, 0xfe, 0xff, 0xff, 0x1b, 0x00, 0x00, 0x00, 0x73, 0x65, 0x71, 0x75, 
    0x65, 0x6e, 0x74, 0x69, 0x61, 0x6c, 0x5f, 0x31, 0x2f, 0x64, 0x65, 0x6e, 0x73, 0x65, 0x5f, 0x31, 
    0x2f, 0x4d, 0x61, 0x74, 0x4d, 0x75, 0x6c, 0x00, 0x02, 0x00, 0x00, 0x00, 0x10, 0x00, 0x00, 0x00, 
    0x08, 0x00, 0x00, 0x00, 0xde, 0xfe, 0xff, 0xff, 0x00, 0x00, 0x00, 0x01, 0x10, 0x00, 0x00, 0x00, 
    0x10, 0x00, 0x00, 0x00, 0x06, 0x00, 0x00, 0x00, 0x38, 0x00, 0x00, 0x00, 0x64, 0xfe, 0xff, 0xff, 
    0x2b, 0x00, 0x00, 0x00, 0x73, 0x65, 0x71, 0x75, 0x65, 0x6e, 0x74, 0x69, 0x61, 0x6c, 0x5f, 0x31, 
    0x2f, 0x64, 0x65, 0x6e, 0x73, 0x65, 0x5f, 0x31, 0x2f, 0x42, 0x69, 0x61, 0x73, 0x41, 0x64, 0x64, 
    0x2f, 0x52, 0x65, 0x61, 0x64, 0x56, 0x61, 0x72, 0x69, 0x61, 0x62, 0x6c, 0x65, 0x4f, 0x70, 0x00, 
    0x01, 0x00, 0x00, 0x00, 0x10, 0x00, 0x00, 0x00, 0x32, 0xff, 0xff, 0xff, 0x00, 0x00, 0x00, 0x01, 
    0x10, 0x00, 0x00, 0x00, 0x10, 0x00, 0x00, 0x00, 0x05, 0x00, 0x00, 0x00, 0x3c, 0x00, 0x00, 0x00, 
    0xb8, 0xfe, 0xff, 0xff, 0x2d, 0x00, 0x00, 0x00, 0x73, 0x65, 0x71, 0x75, 0x65, 0x6e, 0x74, 0x69, 
    0x61, 0x6c, 0x5f, 0x31, 0x2f, 0x64, 0x65, 0x6e, 0x73, 0x65, 0x5f, 0x31, 0x5f, 0x32, 0x2f, 0x42, 
    0x69, 0x61, 0x73, 0x41, 0x64, 0x64, 0x2f, 0x52, 0x65, 0x61, 0x64, 0x56, 0x61, 0x72, 0x69, 0x61, 
    0x62, 0x6c, 0x65, 0x4f, 0x70, 0x00, 0x00, 0x00, 0x01, 0x00, 0x00, 0x00, 0x08, 0x00, 0x00, 0x00, 
    0x8a, 0xff, 0xff, 0xff, 0x00, 0x00, 0x00, 0x01, 0x10, 0x00, 0x00, 0x00, 0x10, 0x00, 0x00, 0x00, 
    0x04, 0x00, 0x00, 0x00, 0x1c, 0x00, 0x00, 0x00, 0x10, 0xff, 0xff, 0xff, 0x0f, 0x00, 0x00, 0x00, 
    0x61, 0x72, 0x69, 0x74, 0x68, 0x2e, 0x63, 0x6f, 0x6e, 0x73, 0x74, 0x61, 0x6e, 0x74, 0x32, 0x00, 
    0x01, 0x00, 0x00, 0x00, 0x01, 0x00, 0x00, 0x00, 0xc2, 0xff, 0xff, 0xff, 0x00, 0x00, 0x00, 0x01, 
    0x10, 0x00, 0x00, 0x00, 0x10, 0x00, 0x00, 0x00, 0x03, 0x00, 0x00, 0x00, 0x1c, 0x00, 0x00, 0x00, 
    0x48, 0xff, 0xff, 0xff, 0x0f, 0x00, 0x00, 0x00, 0x61, 0x72, 0x69, 0x74, 0x68, 0x2e, 0x63, 0x6f, 
    0x6e, 0x73, 0x74, 0x61, 0x6e, 0x74, 0x31, 0x00, 0x02, 0x00, 0x00, 0x00, 0x08, 0x00, 0x00, 0x00, 
    0x10, 0x00, 0x00, 0x00, 0x00, 0x00, 0x16, 0x00, 0x18, 0x00, 0x14, 0x00, 0x00, 0x00, 0x10, 0x00, 
    0x0c, 0x00, 0x08, 0x00, 0x00, 0x00, 0x00, 0x00, 0x00, 0x00, 0x07, 0x00, 0x16, 0x00, 0x00, 0x00, 
    0x00, 0x00, 0x00, 0x01, 0x10, 0x00, 0x00, 0x00, 0x10, 0x00, 0x00, 0x00, 0x02, 0x00, 0x00, 0x00, 
    0x1c, 0x00, 0x00, 0x00, 0x9c, 0xff, 0xff, 0xff, 0x0e, 0x00, 0x00, 0x00, 0x61, 0x72, 0x69, 0x74, 
    0x68, 0x2e, 0x63, 0x6f, 0x6e, 0x73, 0x74, 0x61, 0x6e, 0x74, 0x00, 0x00, 0x02, 0x00, 0x00, 0x00, 
    0x01, 0x00, 0x00, 0x00, 0x08, 0x00, 0x00, 0x00, 0x00, 0x00, 0x16, 0x00, 0x1c, 0x00, 0x18, 0x00, 
    0x00, 0x00, 0x14, 0x00, 0x10, 0x00, 0x0c, 0x00, 0x00, 0x00, 0x00, 0x00, 0x08, 0x00, 0x07, 0x00, 
    0x16, 0x00, 0x00, 0x00, 0x00, 0x00, 0x00, 0x01, 0x14, 0x00, 0x00, 0x00, 0x20, 0x00, 0x00, 0x00, 
    0x20, 0x00, 0x00, 0x00, 0x01, 0x00, 0x00, 0x00, 0x3c, 0x00, 0x00, 0x00, 0x02, 0x00, 0x00, 0x00, 
    0xff, 0xff, 0xff, 0xff, 0x08, 0x00, 0x00, 0x00, 0x04, 0x00, 0x04, 0x00, 0x04, 0x00, 0x00, 0x00, 
    0x1e, 0x00, 0x00, 0x00, 0x73, 0x65, 0x72, 0x76, 0x69, 0x6e, 0x67, 0x5f, 0x64, 0x65, 0x66, 0x61, 
    0x75, 0x6c, 0x74, 0x5f, 0x6b, 0x65, 0x72, 0x61, 0x73, 0x5f, 0x74, 0x65, 0x6e, 0x73, 0x6f, 0x72, 
    0x3a, 0x30, 0x00, 0x00, 0x02, 0x00, 0x00, 0x00, 0x01, 0x00, 0x00, 0x00, 0x08, 0x00, 0x00, 0x00, 
    0x01, 0x00, 0x00, 0x00, 0x10, 0x00, 0x00, 0x00, 0x0c, 0x00, 0x0c, 0x00, 0x0b, 0x00, 0x00, 0x00, 
    0x00, 0x00, 0x04, 0x00, 0x0c, 0x00, 0x00, 0x00, 0x09, 0x00, 0x00, 0x00, 0x00, 0x00, 0x00, 0x09
};
const unsigned int embedded_model_data_len = 3056;

// Auto-generated CSV data
const char* embedded_csv_data = 
    "sample_id,timestamp,scenario,temp_sensor,humidity_sensor,mq135_raw,mq135_normalized,comfort_index,temp_diff,humidity_diff,pm_ratio\n"
    "1,2025-07-16 21:31:51,Good,23.7,64.7,1105,26.98,30.16,1.2,-9.6,1.48\n"
    "2,2025-07-16 21:41:51,Good,27.5,48.1,826,20.17,32.31,0.1,-1.4,1.0\n"
    "3,2025-07-16 21:51:51,Good,25.3,43.5,885,21.61,29.67,0.1,1.8,0.83\n"
    "4,2025-07-16 22:01:51,Good,25.9,47.2,873,21.32,30.67,-2.4,3.7,1.11\n"
    "5,2025-07-16 22:11:51,Good,22.6,55.7,750,18.32,28.19,0.1,0.9,0.93\n"
    "6,2025-07-16 22:21:51,Good,28.4,60.9,1219,29.77,34.46,2.5,-8.2,0.94\n"
    "7,2025-07-16 22:31:51,Good,22.7,50.4,888,21.68,27.7,0.3,-7.2,1.36\n"
    "8,2025-07-16 22:41:51,Good,22.0,65.9,1152,28.13,28.6,1.4,5.4,0.85\n"
    "9,2025-07-16 22:51:51,Good,23.4,49.5,1137,27.77,28.35,-1.0,4.6,1.25\n"
    "10,2025-07-16 23:01:51,Good,27.1,56.4,886,21.64,32.76,0.4,5.4,1.15\n"
    "11,2025-07-16 23:11:51,Good,24.4,55.6,855,20.88,29.99,-1.5,-1.8,1.33\n"
    "12,2025-07-16 23:21:51,Good,23.4,47.5,972,23.74,28.14,2.2,6.1,0.93\n"
    "13,2025-07-16 23:31:51,Good,27.2,57.1,1110,27.11,32.91,-0.4,6.4,1.4\n"
    "14,2025-07-16 23:41:51,Good,21.9,54.4,952,23.25,27.3,-1.0,8.9,1.03\n"
    "15,2025-07-16 23:51:51,Good,25.1,55.7,892,21.78,30.67,-2.8,2.2,1.15\n"
    "16,2025-07-16 23:31:51,Moderate,27.7,45.0,1723,42.08,32.21,-0.1,9.7,0.97\n"
    "17,2025-07-16 23:41:51,Moderate,30.3,68.2,1412,34.48,37.11,0.2,-8.2,1.38\n"
    "18,2025-07-16 23:51:51,Moderate,30.0,45.9,1267,30.94,34.57,-2.9,0.2,0.96\n"
    "19,2025-07-17 00:01:51,Moderate,30.9,41.7,1595,38.95,35.06,-2.3,8.5,1.41\n"
    "20,2025-07-17 00:11:51,Moderate,28.6,64.1,1816,44.35,35.0,-1.5,-8.1,1.43\n"
    "21,2025-07-17 00:21:51,Moderate,32.3,58.6,1433,34.99,38.11,-2.5,-6.8,1.43\n"
    "22,2025-07-17 00:31:51,Moderate,31.0,35.7,1200,29.3,34.61,1.2,3.0,0.96\n"
    "23,2025-07-17 00:41:51,Moderate,31.2,47.0,1416,34.58,35.94,0.4,-8.1,1.06\n"
    "24,2025-07-17 00:51:51,Moderate,29.5,46.5,1772,43.27,34.18,0.8,5.9,1.15\n"
    "25,2025-07-17 01:01:51,Moderate,29.8,56.7,1319,32.21,35.49,-1.9,8.8,1.47\n"
    "26,2025-07-17 01:11:51,Moderate,31.6,49.6,1246,30.43,36.55,2.8,9.3,1.4\n"
    "27,2025-07-17 01:21:51,Moderate,28.7,49.4,1745,42.61,33.65,1.2,1.4,0.87\n"
    "28,2025-07-17 01:31:51,Moderate,30.5,76.7,1286,31.4,38.18,1.4,3.9,1.29\n"
    "29,2025-07-17 01:41:51,Moderate,29.6,47.3,1686,41.17,34.32,0.0,6.0,1.25\n"
    "30,2025-07-17 01:51:51,Moderate,31.2,64.5,1659,40.51,37.7,-2.4,1.6,0.83\n"
    "31,2025-07-17 01:31:51,Unhealthy_Sensitive,33.7,36.0,1956,47.77,37.26,0.1,5.4,0.95\n"
    "32,2025-07-17 01:41:51,Unhealthy_Sensitive,34.3,31.5,1928,47.08,37.47,0.8,4.5,1.48\n"
    "33,2025-07-17 01:51:51,Unhealthy_Sensitive,33.8,28.1,2318,56.61,36.66,-2.0,-6.9,0.98\n"
    "34,2025-07-17 02:01:51,Unhealthy_Sensitive,35.0,40.0,2344,57.24,39.03,0.7,-1.6,0.97\n"
    "35,2025-07-17 02:11:51,Unhealthy_Sensitive,33.3,43.9,1810,44.2,37.7,-0.2,-6.5,1.1\n"
    "36,2025-07-17 02:21:51,Unhealthy_Sensitive,33.1,37.1,2221,54.24,36.83,0.8,0.1,1.4\n"
    "37,2025-07-17 02:31:51,Unhealthy_Sensitive,34.5,28.4,1881,45.93,37.37,0.5,-2.2,1.25\n"
    "38,2025-07-17 02:41:51,Unhealthy_Sensitive,33.9,36.8,2454,59.93,37.58,2.4,-6.1,0.85\n"
    "39,2025-07-17 02:51:51,Unhealthy_Sensitive,32.2,25.8,1910,46.64,34.74,-2.9,6.3,1.0\n"
    "40,2025-07-17 03:01:51,Unhealthy_Sensitive,32.2,39.7,2269,55.41,36.21,1.8,-4.4,0.92\n"
    "41,2025-07-17 03:31:51,Unhealthy,37.9,33.7,3160,77.17,41.23,2.6,7.2,1.1\n"
    "42,2025-07-17 03:41:51,Unhealthy,39.3,35.1,2618,63.93,42.85,2.0,-3.6,1.43\n"
    "43,2025-07-17 03:51:51,Unhealthy,36.8,19.0,3228,78.83,38.71,-0.3,-4.1,1.03\n"
    "44,2025-07-17 04:01:51,Unhealthy,38.9,33.6,3054,74.58,42.26,0.3,-1.2,1.42\n"
    "45,2025-07-17 04:11:51,Unhealthy,37.1,25.1,2579,62.98,39.57,1.9,4.1,0.86\n"
    "46,2025-07-17 04:21:51,Unhealthy,35.5,42.0,2738,66.86,39.73,2.7,9.7,1.33\n"
    "47,2025-07-17 04:31:51,Unhealthy,35.9,24.8,3029,73.97,38.34,-0.2,-8.9,0.88\n"
    "48,2025-07-17 05:31:51,Very_Unhealthy,38.5,29.0,3651,89.16,41.36,-0.8,-4.3,1.41\n"
    "49,2025-07-17 05:41:51,Very_Unhealthy,38.9,36.2,3230,78.88,42.55,0.1,2.6,1.29\n"
    "50,2025-07-17 05:51:51,Very_Unhealthy,39.8,27.3,3598,87.86,42.58,0.7,-4.5,0.93\n"
;



// Helper functions
bool loadEmbeddedModel() {
    // Model data is in embedded_model_data[]
    // Size is embedded_model_data_len
    return true;
}

String getEmbeddedCSV() {
    return String(embedded_csv_data);
}

#endif // EMBEDDED_DATA_H
